unsigned char fruiot_model_quantized_tflite[] = {
  0x1c, 0x00, 0x00, 0x00, 0x54, 0x46, 0x4c, 0x33, 0x14, 0x00, 0x20, 0x00,
  0x1c, 0x00, 0x18, 0x00, 0x14, 0x00, 0x10, 0x00, 0x0c, 0x00, 0x00, 0x00,
  0x08, 0x00, 0x04, 0x00, 0x14, 0x00, 0x00, 0x00, 0x1c, 0x00, 0x00, 0x00,
  0x1c, 0x00, 0x00, 0x00, 0x74, 0x00, 0x00, 0x00, 0x78, 0x0c, 0x00, 0x00,
  0x88, 0x0c, 0x00, 0x00, 0xdc, 0x13, 0x00, 0x00, 0x03, 0x00, 0x00, 0x00,
  0x00, 0x00, 0x00, 0x00, 0x02, 0x00, 0x00, 0x00, 0x34, 0x00, 0x00, 0x00,
  0x04, 0x00, 0x00, 0x00, 0xdc, 0xff, 0xff, 0xff, 0x0d, 0x00, 0x00, 0x00,
  0x04, 0x00, 0x00, 0x00, 0x13, 0x00, 0x00, 0x00, 0x43, 0x4f, 0x4e, 0x56,
  0x45, 0x52, 0x53, 0x49, 0x4f, 0x4e, 0x5f, 0x4d, 0x45, 0x54, 0x41, 0x44,
  0x41, 0x54, 0x41, 0x00, 0x08, 0x00, 0x0c, 0x00, 0x08, 0x00, 0x04, 0x00,
  0x08, 0x00, 0x00, 0x00, 0x0c, 0x00, 0x00, 0x00, 0x04, 0x00, 0x00, 0x00,
  0x13, 0x00, 0x00, 0x00, 0x6d, 0x69, 0x6e, 0x5f, 0x72, 0x75, 0x6e, 0x74,
  0x69, 0x6d, 0x65, 0x5f, 0x76, 0x65, 0x72, 0x73, 0x69, 0x6f, 0x6e, 0x00,
  0x0e, 0x00, 0x00, 0x00, 0x00, 0x0c, 0x00, 0x00, 0xf8, 0x0b, 0x00, 0x00,
  0xdc, 0x0b, 0x00, 0x00, 0x6c, 0x0b, 0x00, 0x00, 0xdc, 0x0a, 0x00, 0x00,
  0xcc, 0x02, 0x00, 0x00, 0xbc, 0x01, 0x00, 0x00, 0xac, 0x00, 0x00, 0x00,
  0xa4, 0x00, 0x00, 0x00, 0x9c, 0x00, 0x00, 0x00, 0x94, 0x00, 0x00, 0x00,
  0x8c, 0x00, 0x00, 0x00, 0x6c, 0x00, 0x00, 0x00, 0x04, 0x00, 0x00, 0x00,
  0xa6, 0xf3, 0xff, 0xff, 0x04, 0x00, 0x00, 0x00, 0x58, 0x00, 0x00, 0x00,
  0x0c, 0x00, 0x00, 0x00, 0x08, 0x00, 0x0e, 0x00, 0x08, 0x00, 0x04, 0x00,
  0x08, 0x00, 0x00, 0x00, 0x10, 0x00, 0x00, 0x00, 0x28, 0x00, 0x00, 0x00,
  0x00, 0x00, 0x06, 0x00, 0x08, 0x00, 0x04, 0x00, 0x06, 0x00, 0x00, 0x00,
  0x04, 0x00, 0x00, 0x00, 0x01, 0x00, 0x00, 0x00, 0xeb, 0x03, 0x00, 0x00,
  0x00, 0x00, 0x0a, 0x00, 0x10, 0x00, 0x0c, 0x00, 0x08, 0x00, 0x04, 0x00,
  0x0a, 0x00, 0x00, 0x00, 0x01, 0x00, 0x00, 0x00, 0x02, 0x00, 0x00, 0x00,
  0x04, 0x00, 0x00, 0x00, 0x06, 0x00, 0x00, 0x00, 0x32, 0x2e, 0x31, 0x35,
  0x2e, 0x30, 0x00, 0x00, 0x0a, 0xf4, 0xff, 0xff, 0x04, 0x00, 0x00, 0x00,
  0x10, 0x00, 0x00, 0x00, 0x31, 0x2e, 0x31, 0x34, 0x2e, 0x30, 0x00, 0x00,
  0x00, 0x00, 0x00, 0x00, 0x00, 0x00, 0x00, 0x00, 0xf4, 0xf3, 0xff, 0xff,
  0xf8, 0xf3, 0xff, 0xff, 0xfc, 0xf3, 0xff, 0xff, 0x00, 0xf4, 0xff, 0xff,
  0x36, 0xf4, 0xff, 0xff, 0x04, 0x00, 0x00, 0x00, 0x00, 0x01, 0x00, 0x00,
  0xd4, 0x09, 0xb6, 0xd5, 0x42, 0x46, 0x07, 0xe5, 0x8c, 0xcd, 0x11, 0xc5,
  0xd1, 0x5e, 0x13, 0x3e, 0xc6, 0x3a, 0x4b, 0xd0, 0xe8, 0x0a, 0xab, 0xfd,
  0xb1, 0x44, 0xb2, 0xbe, 0x5a, 0xc6, 0x08, 0x26, 0xf8, 0x45, 0xd2, 0x06,
  0xe9, 0x44, 0x20, 0x12, 0x36, 0xb1, 0xae, 0x12, 0xef, 0x36, 0x0b, 0x64,
  0x68, 0xa7, 0x39, 0xf6, 0xc9, 0x19, 0xaf, 0x08, 0x6f, 0xeb, 0xc5, 0xf3,
  0xa6, 0x21, 0x36, 0x71, 0x92, 0xae, 0x15, 0x07, 0x28, 0xec, 0x24, 0x33,
  0xb1, 0xf9, 0x57, 0x1a, 0xe0, 0xc5, 0xf8, 0x01, 0xe7, 0x32, 0x15, 0xbf,
  0x2f, 0x0f, 0x28, 0x5e, 0xb8, 0xea, 0x95, 0xfa, 0x77, 0xd7, 0xb4, 0x17,
  0xda, 0xf8, 0x5a, 0xe2, 0xf2, 0x7e, 0x0f, 0x4d, 0xb9, 0x2e, 0x06, 0xf1,
  0xde, 0x3a, 0x3d, 0xe8, 0xcf, 0x30, 0xca, 0xe6, 0xce, 0x29, 0x18, 0xfe,
  0x04, 0x36, 0xec, 0xda, 0x21, 0x03, 0xd9, 0xde, 0xb4, 0xf6, 0x0b, 0xe3,
  0xb9, 0x19, 0xd9, 0x0c, 0x1d, 0xff, 0x16, 0xc9, 0xea, 0x81, 0xe1, 0x07,
  0x37, 0x11, 0xc4, 0x15, 0x12, 0x97, 0x25, 0x22, 0xa1, 0x9d, 0xae, 0x08,
  0x59, 0x34, 0xeb, 0xc0, 0x5c, 0xe4, 0xd4, 0xed, 0xd5, 0x71, 0x24, 0x47,
  0x54, 0x03, 0xda, 0xce, 0x1f, 0x59, 0x03, 0x10, 0xd1, 0x54, 0x33, 0xeb,
  0x3c, 0x39, 0xc0, 0x09, 0xc5, 0xb8, 0x1f, 0xee, 0xea, 0x34, 0x47, 0xd6,
  0x9c, 0xa9, 0xe2, 0xc8, 0x70, 0xbb, 0xb7, 0xdf, 0xd8, 0x37, 0x1a, 0xf1,
  0x5a, 0xe6, 0xce, 0xf3, 0x3f, 0xaa, 0x14, 0x1a, 0x26, 0x13, 0x5f, 0xea,
  0x72, 0x35, 0xc2, 0xfd, 0xba, 0xa7, 0x01, 0x11, 0xa9, 0xd7, 0x06, 0xd5,
  0x0c, 0xdd, 0x49, 0xf2, 0x12, 0xbb, 0x4b, 0xf5, 0x29, 0x04, 0x0a, 0xe9,
  0xc0, 0xca, 0xf9, 0x3d, 0x32, 0x2c, 0x45, 0x21, 0xbc, 0xe2, 0x3a, 0xc6,
  0xe5, 0x68, 0xd4, 0x31, 0x42, 0xf5, 0xff, 0xff, 0x04, 0x00, 0x00, 0x00,
  0x00, 0x01, 0x00, 0x00, 0xed, 0x01, 0x00, 0x00, 0x5d, 0x05, 0x00, 0x00,
  0x01, 0x07, 0x00, 0x00, 0x92, 0x06, 0x00, 0x00, 0xa9, 0x08, 0x00, 0x00,
  0x52, 0xff, 0xff, 0xff, 0xec, 0x05, 0x00, 0x00, 0x2f, 0x01, 0x00, 0x00,
  0x8d, 0x08, 0x00, 0x00, 0x11, 0x03, 0x00, 0x00, 0xcc, 0x01, 0x00, 0x00,
  0xdc, 0x02, 0x00, 0x00, 0x15, 0x02, 0x00, 0x00, 0x96, 0xfc, 0xff, 0xff,
  0x34, 0x04, 0x00, 0x00, 0x4e, 0x07, 0x00, 0x00, 0x36, 0x06, 0x00, 0x00,
  0x58, 0xff, 0xff, 0xff, 0x20, 0x04, 0x00, 0x00, 0x08, 0x04, 0x00, 0x00,
  0xd1, 0x04, 0x00, 0x00, 0xa2, 0x04, 0x00, 0x00, 0x8c, 0xfd, 0xff, 0xff,
  0x25, 0x02, 0x00, 0x00, 0xc6, 0x01, 0x00, 0x00, 0xae, 0x0b, 0x00, 0x00,
  0x14, 0x08, 0x00, 0x00, 0x8f, 0x07, 0x00, 0x00, 0xc7, 0x0a, 0x00, 0x00,
  0xe5, 0x09, 0x00, 0x00, 0x5e, 0x02, 0x00, 0x00, 0xc0, 0x03, 0x00, 0x00,
  0xa1, 0x07, 0x00, 0x00, 0x7e, 0xfe, 0xff, 0xff, 0xca, 0x05, 0x00, 0x00,
  0xee, 0x07, 0x00, 0x00, 0x3b, 0xfb, 0xff, 0xff, 0x37, 0x07, 0x00, 0x00,
  0xae, 0x01, 0x00, 0x00, 0x65, 0x08, 0x00, 0x00, 0xfd, 0x03, 0x00, 0x00,
  0x39, 0x06, 0x00, 0x00, 0x4f, 0x04, 0x00, 0x00, 0xde, 0x08, 0x00, 0x00,
  0x0d, 0x0a, 0x00, 0x00, 0x42, 0xfd, 0xff, 0xff, 0xc6, 0x04, 0x00, 0x00,
  0xfd, 0x00, 0x00, 0x00, 0xcd, 0x06, 0x00, 0x00, 0x5b, 0x03, 0x00, 0x00,
  0xbe, 0x01, 0x00, 0x00, 0x48, 0x03, 0x00, 0x00, 0xd7, 0x04, 0x00, 0x00,
  0x10, 0x01, 0x00, 0x00, 0xa4, 0xfb, 0xff, 0xff, 0x10, 0x07, 0x00, 0x00,
  0xdd, 0x04, 0x00, 0x00, 0x5c, 0x01, 0x00, 0x00, 0x13, 0x07, 0x00, 0x00,
  0xcb, 0x02, 0x00, 0x00, 0xab, 0x05, 0x00, 0x00, 0x49, 0xff, 0xff, 0xff,
  0xfd, 0x01, 0x00, 0x00, 0x96, 0x07, 0x00, 0x00, 0x4e, 0xf6, 0xff, 0xff,
  0x04, 0x00, 0x00, 0x00, 0x00, 0x08, 0x00, 0x00, 0xfe, 0xf1, 0xbc, 0xf0,
  0xef, 0x1d, 0x0f, 0x0b, 0x2b, 0x0c, 0x1a, 0x14, 0xe9, 0x12, 0x22, 0xfa,
  0xcf, 0x16, 0x1a, 0xec, 0xf6, 0xf5, 0x2d, 0x2e, 0xeb, 0xd7, 0xfb, 0xc7,
  0xf0, 0xce, 0xe8, 0xff, 0x15, 0x0a, 0x22, 0xf4, 0x1b, 0x06, 0x0f, 0xf4,
  0x1c, 0xd6, 0x1c, 0xd9, 0x05, 0x36, 0x26, 0xc2, 0xce, 0x1f, 0xfd, 0x39,
  0x19, 0x04, 0xf0, 0x25, 0x00, 0x2c, 0x36, 0x27, 0x22, 0x29, 0xfd, 0x0c,
  0xf2, 0xe6, 0x16, 0x25, 0xda, 0x01, 0xe3, 0x17, 0xe6, 0x23, 0x40, 0x0f,
  0x3a, 0xd6, 0x30, 0xf9, 0xcc, 0xee, 0xdb, 0xe6, 0xe6, 0x28, 0x32, 0x1a,
  0xf6, 0xee, 0x0f, 0xfa, 0xd4, 0xfa, 0x15, 0x2d, 0xe0, 0x02, 0x02, 0xf1,
  0x0c, 0x22, 0xfe, 0x08, 0x50, 0x08, 0xf9, 0xd7, 0x1b, 0x2b, 0xe3, 0xf9,
  0x17, 0x33, 0x16, 0x30, 0xea, 0xfd, 0x18, 0x1e, 0x06, 0x12, 0xf4, 0xea,
  0xfa, 0xea, 0xec, 0x14, 0x11, 0xee, 0xf9, 0xfe, 0x1c, 0xea, 0x1f, 0x0e,
  0xe5, 0xe8, 0xce, 0xf3, 0xf9, 0xdf, 0x32, 0xd5, 0x0e, 0x1e, 0xe9, 0xcb,
  0x07, 0x11, 0xf6, 0x11, 0x02, 0x33, 0xfd, 0xee, 0x1a, 0xf2, 0x2e, 0x00,
  0x16, 0xbe, 0x21, 0x15, 0x09, 0xd9, 0xe6, 0xee, 0x1d, 0x2e, 0x0b, 0x0d,
  0x2c, 0xe3, 0xf6, 0xe1, 0x1b, 0xe7, 0x02, 0x3b, 0x05, 0x0c, 0x2e, 0x05,
  0x11, 0xe7, 0xd8, 0x18, 0xe0, 0xe4, 0xea, 0xe6, 0x01, 0xd8, 0x20, 0xee,
  0x1b, 0x10, 0x2f, 0xeb, 0x23, 0xdd, 0xda, 0xfe, 0xe9, 0x1b, 0xa8, 0xf8,
  0xfd, 0x04, 0x25, 0x1f, 0x13, 0xf8, 0x3d, 0xde, 0x3d, 0xc0, 0x0b, 0xf4,
  0x2a, 0x0a, 0xe3, 0x0e, 0x43, 0x05, 0x1c, 0x00, 0xf0, 0x1d, 0x1a, 0x10,
  0xc8, 0xe4, 0xed, 0xd8, 0x2d, 0xdd, 0x35, 0xfb, 0x35, 0xf8, 0x25, 0xa2,
  0xfa, 0xfd, 0xcf, 0x28, 0x3a, 0x16, 0x3e, 0xe3, 0x2f, 0xe8, 0x35, 0x0b,
  0x16, 0x0d, 0x0c, 0xe2, 0xfc, 0x1c, 0xeb, 0x3a, 0x1a, 0xf3, 0x44, 0x18,
  0xf7, 0xfd, 0x14, 0x07, 0x3c, 0xe6, 0xea, 0x2d, 0xd2, 0x0b, 0x44, 0x1c,
  0x1a, 0xd8, 0xdc, 0xe4, 0x01, 0xd4, 0x20, 0x16, 0xe6, 0x1a, 0xc5, 0x0f,
  0xf4, 0x0e, 0x48, 0xd0, 0x2a, 0x07, 0x0c, 0x0b, 0xe2, 0x1a, 0x46, 0xd6,
  0xf4, 0x35, 0xf7, 0x40, 0x23, 0x35, 0x17, 0x0f, 0x1b, 0x0f, 0x12, 0x13,
  0x43, 0xe9, 0xf6, 0x19, 0x33, 0xea, 0x0f, 0xcf, 0xff, 0x2d, 0x32, 0xd9,
  0x01, 0xd5, 0x06, 0xce, 0xf7, 0xfd, 0xb9, 0x1c, 0x45, 0x04, 0x30, 0x39,
  0xf6, 0xe9, 0x41, 0xcc, 0x44, 0xab, 0x24, 0x07, 0x13, 0xeb, 0x0e, 0x1b,
  0x40, 0x14, 0x08, 0x1a, 0xfb, 0x2a, 0x1c, 0xce, 0xcd, 0xb5, 0xed, 0xc8,
  0x24, 0xf0, 0x28, 0x0e, 0x21, 0xf1, 0xe5, 0xf3, 0x0b, 0xeb, 0xfc, 0x3e,
  0x18, 0xee, 0x2d, 0xe3, 0xfd, 0x08, 0x39, 0xe9, 0xf8, 0xef, 0x30, 0x0d,
  0x52, 0x28, 0x2a, 0x06, 0x1a, 0xf8, 0xe2, 0x0e, 0x25, 0x12, 0xc4, 0x38,
  0x38, 0xf0, 0x01, 0x08, 0x0c, 0xf7, 0x2d, 0xc6, 0x0a, 0xf6, 0x06, 0x3d,
  0x1c, 0x30, 0x0d, 0xe8, 0x26, 0x13, 0x37, 0x1d, 0xcb, 0xed, 0x23, 0x27,
  0xf4, 0xdf, 0xd6, 0xe0, 0x49, 0x1b, 0x12, 0xfc, 0x35, 0xd6, 0x01, 0xc5,
  0x08, 0x19, 0xda, 0xfe, 0x2b, 0xed, 0xfc, 0x18, 0x21, 0xfb, 0x1b, 0x00,
  0x1b, 0x14, 0x03, 0xe5, 0xc9, 0x2c, 0x27, 0x2f, 0x23, 0x19, 0x25, 0xff,
  0x31, 0x1e, 0x38, 0xc4, 0xdf, 0x09, 0xc1, 0xec, 0xf8, 0x04, 0x1b, 0x46,
  0xe6, 0x2d, 0x20, 0xd4, 0xe7, 0xea, 0x1b, 0x26, 0x11, 0xc4, 0x37, 0x24,
  0x1e, 0x0e, 0xc3, 0x08, 0x55, 0xe9, 0x3d, 0x47, 0xd7, 0xed, 0xf1, 0xe3,
  0xeb, 0x0a, 0x18, 0x51, 0x1f, 0x22, 0x34, 0xe5, 0xfc, 0xd7, 0x21, 0x33,
  0x1b, 0xd3, 0x04, 0x0a, 0x29, 0xf0, 0x17, 0xe8, 0xee, 0xdf, 0x29, 0x1d,
  0xe0, 0xd1, 0x11, 0xef, 0xef, 0x10, 0x41, 0xea, 0xe2, 0x00, 0xf7, 0x24,
  0xde, 0x1e, 0xdd, 0xfc, 0x0b, 0x02, 0x05, 0xc7, 0xf8, 0xfc, 0x1f, 0xe5,
  0xd1, 0xff, 0x39, 0x24, 0x3f, 0xf6, 0x19, 0xf0, 0x1a, 0xda, 0x17, 0x15,
  0xf7, 0x0f, 0xd9, 0xca, 0x1b, 0x43, 0xfb, 0x3d, 0x29, 0xd6, 0xfa, 0xca,
  0x11, 0x0e, 0x2d, 0x07, 0x08, 0x1a, 0xf9, 0xf8, 0xf5, 0x02, 0xd8, 0xd2,
  0xbd, 0xff, 0xda, 0x12, 0x0d, 0xde, 0x58, 0xee, 0x0b, 0x1b, 0x58, 0xc6,
  0xfc, 0xeb, 0xf0, 0x2b, 0x0c, 0x30, 0x2c, 0x22, 0x0e, 0xf2, 0x16, 0xfe,
  0xe9, 0xcc, 0x14, 0xeb, 0x0e, 0xe0, 0xee, 0x3d, 0x1b, 0xe7, 0xf3, 0x2b,
  0x24, 0xf2, 0x21, 0x0c, 0xe0, 0x2f, 0xfb, 0xdf, 0x02, 0x40, 0xe3, 0x51,
  0x1c, 0x03, 0xf7, 0x12, 0xcc, 0xff, 0xfd, 0x0c, 0x13, 0x10, 0xdc, 0xea,
  0xea, 0xec, 0x30, 0xdf, 0xe6, 0xea, 0x25, 0x1f, 0x14, 0x18, 0xde, 0xe4,
  0xd7, 0x14, 0xd8, 0xfd, 0x29, 0x1d, 0x2a, 0x37, 0x1d, 0x1e, 0xf8, 0xd1,
  0x17, 0xd0, 0xfd, 0x16, 0x16, 0x2c, 0xe5, 0xfa, 0xf5, 0xe2, 0xf0, 0x0c,
  0x00, 0x1b, 0x37, 0x18, 0xb8, 0xa8, 0x19, 0xb5, 0xf4, 0xf6, 0x42, 0x17,
  0x24, 0xdf, 0x17, 0xca, 0xef, 0x12, 0xf8, 0x3b, 0x3f, 0x16, 0xf0, 0xf3,
  0x3e, 0x0c, 0x41, 0xf1, 0xfe, 0xe5, 0xd0, 0xe2, 0xef, 0x22, 0xff, 0xf5,
  0x0d, 0x18, 0x2e, 0xce, 0x35, 0x25, 0x23, 0xed, 0xdb, 0xf3, 0xea, 0x21,
  0x01, 0x20, 0x19, 0x28, 0xf3, 0xd9, 0xfe, 0x03, 0xdd, 0x1a, 0x1a, 0x06,
  0x1e, 0x21, 0xe3, 0x1c, 0x19, 0x09, 0x13, 0x14, 0xe7, 0xca, 0x17, 0x11,
  0x09, 0x23, 0xfc, 0xf8, 0x23, 0xe7, 0xfd, 0x2c, 0x3d, 0xfd, 0x29, 0x1e,
  0x20, 0x17, 0x11, 0x1b, 0x24, 0x16, 0x16, 0x0b, 0xe3, 0x3e, 0x1b, 0x15,
  0x15, 0xed, 0x13, 0xee, 0x42, 0xf6, 0xba, 0x4b, 0x0f, 0x13, 0xfd, 0x3f,
  0xef, 0x1f, 0x2e, 0xd5, 0xeb, 0x30, 0xd9, 0xec, 0x15, 0x49, 0x1d, 0xf5,
  0x10, 0x3b, 0x06, 0xfd, 0xf3, 0xec, 0xe4, 0xb9, 0xe8, 0xee, 0xd2, 0x25,
  0x30, 0x40, 0x05, 0x25, 0x3a, 0x14, 0xcc, 0xf9, 0xfa, 0x0f, 0xf3, 0x2a,
  0xf2, 0xf2, 0xff, 0xe0, 0x03, 0xcb, 0xce, 0x3a, 0x19, 0x14, 0xf9, 0x39,
  0x29, 0x14, 0xfe, 0x36, 0x12, 0x20, 0x17, 0xf8, 0xff, 0x1e, 0xca, 0x10,
  0xf5, 0x0f, 0xed, 0x4a, 0x14, 0x13, 0x17, 0xf8, 0x13, 0xe0, 0x00, 0x03,
  0x3f, 0xf7, 0x26, 0x4c, 0x20, 0x1d, 0x23, 0xe0, 0x28, 0x14, 0x2d, 0xef,
  0xf6, 0x22, 0x2c, 0xf2, 0xd8, 0x14, 0x04, 0xfc, 0xfc, 0xd6, 0x37, 0x3c,
  0x36, 0xd7, 0x2a, 0x06, 0xfe, 0x2b, 0x12, 0x35, 0x17, 0x21, 0x00, 0x0b,
  0x38, 0x0d, 0x32, 0x19, 0x0e, 0x13, 0xdb, 0x06, 0xe5, 0x2d, 0x01, 0x0d,
  0x11, 0x2a, 0x13, 0x22, 0x15, 0xee, 0x40, 0x37, 0xef, 0xe9, 0xf0, 0xfa,
  0x27, 0xff, 0xf1, 0x27, 0xeb, 0x13, 0x00, 0x0b, 0x0e, 0xf0, 0x09, 0x1a,
  0xe9, 0x12, 0x09, 0xe7, 0xee, 0x1f, 0xd1, 0x38, 0x12, 0x50, 0x30, 0x42,
  0x2f, 0x21, 0xc1, 0x25, 0x18, 0x4c, 0x2b, 0x2e, 0xf5, 0xf9, 0x06, 0x05,
  0xed, 0xec, 0x10, 0xfe, 0xef, 0xfa, 0xfa, 0x31, 0x00, 0x06, 0xea, 0xdf,
  0x1d, 0x0b, 0x00, 0xd8, 0xd7, 0x12, 0xe2, 0x18, 0xee, 0xea, 0x16, 0xf6,
  0xf1, 0xe3, 0x04, 0x22, 0x17, 0x1b, 0xd3, 0x0a, 0xef, 0xe2, 0xe8, 0x11,
  0x08, 0xf9, 0xd8, 0x15, 0x0e, 0x1e, 0x14, 0x1c, 0xfc, 0xed, 0x23, 0xf1,
  0x05, 0xe6, 0x13, 0xfe, 0xf6, 0xdd, 0xf4, 0xd7, 0xea, 0x24, 0xe8, 0xeb,
  0xdf, 0xe3, 0x08, 0x24, 0x23, 0xe0, 0x01, 0xea, 0xf7, 0x17, 0xd7, 0xf1,
  0x1e, 0xd2, 0x38, 0x10, 0xd8, 0xf9, 0xef, 0x08, 0xe1, 0xd2, 0x2c, 0xe5,
  0x1f, 0x01, 0x2f, 0xe5, 0x1b, 0x15, 0xfa, 0x10, 0xdc, 0x1b, 0x49, 0xff,
  0x0d, 0x12, 0x2f, 0xee, 0x19, 0xff, 0x10, 0xe4, 0x07, 0x25, 0xe4, 0x34,
  0x25, 0x30, 0x22, 0xea, 0xfc, 0xe7, 0x27, 0x04, 0xc1, 0x21, 0x0b, 0xf3,
  0x2c, 0x03, 0xf2, 0xee, 0x39, 0xf1, 0x22, 0x16, 0x04, 0x33, 0xfa, 0xca,
  0x18, 0x18, 0xf5, 0x0a, 0x13, 0xcd, 0x12, 0xdf, 0x10, 0x41, 0x33, 0xf5,
  0x06, 0xe2, 0x3d, 0xbb, 0x15, 0x2f, 0xad, 0xdf, 0x03, 0xfb, 0x2c, 0xfd,
  0x1e, 0x16, 0x00, 0x1b, 0x0a, 0x07, 0xef, 0xd4, 0xf9, 0xff, 0xde, 0x02,
  0x2c, 0xf3, 0xdd, 0x4b, 0xf3, 0x34, 0x3d, 0xd2, 0xf4, 0xf5, 0x20, 0xf3,
  0x0a, 0x24, 0x2a, 0x0f, 0x2e, 0xb5, 0xf0, 0xa7, 0x1c, 0x34, 0x04, 0x04,
  0x31, 0x18, 0x44, 0xea, 0x11, 0x19, 0x1d, 0xf9, 0xef, 0x0e, 0x3a, 0x0b,
  0x1f, 0xfd, 0xfd, 0x1b, 0x11, 0x1a, 0xcb, 0x18, 0x01, 0xec, 0xd7, 0x3a,
  0x48, 0xda, 0x30, 0x2f, 0x0b, 0x27, 0x22, 0xd8, 0x15, 0x19, 0x27, 0x56,
  0x37, 0x4d, 0x31, 0x2d, 0x46, 0x1b, 0x11, 0x17, 0xf4, 0x10, 0xee, 0xed,
  0xc3, 0x11, 0x17, 0x1b, 0x08, 0x18, 0x34, 0x29, 0x0f, 0xf2, 0xf5, 0xc3,
  0xd6, 0x03, 0xe4, 0x12, 0x0e, 0xf7, 0x19, 0x1b, 0x4b, 0x13, 0x18, 0xed,
  0xd3, 0x2a, 0xe2, 0x1f, 0x04, 0x16, 0xe6, 0x20, 0x1c, 0x08, 0xf5, 0xea,
  0xf5, 0x00, 0xea, 0x02, 0x27, 0x0d, 0xfa, 0xea, 0xe7, 0xea, 0x02, 0x0d,
  0xdf, 0x1a, 0xff, 0x01, 0x01, 0xf4, 0xff, 0x10, 0xe6, 0xef, 0xde, 0xe6,
  0xe1, 0xf1, 0x06, 0x26, 0x07, 0xf7, 0xd8, 0xe8, 0x1c, 0xff, 0xe9, 0xdd,
  0xf4, 0xef, 0xee, 0x2a, 0x13, 0xe2, 0xd3, 0x28, 0xd6, 0xdd, 0xfb, 0x07,
  0xe3, 0xfa, 0xf3, 0xf5, 0x19, 0x01, 0xf5, 0x1c, 0x3f, 0xdc, 0x21, 0xb4,
  0x3e, 0x45, 0x05, 0x58, 0xc6, 0xf3, 0x34, 0x4c, 0xff, 0xe6, 0x09, 0xdd,
  0x25, 0x66, 0xd2, 0xbc, 0x19, 0x44, 0x24, 0x29, 0x10, 0x1e, 0x12, 0xe7,
  0x12, 0x2a, 0xf0, 0xbf, 0x25, 0xd1, 0xc3, 0x0e, 0x21, 0x08, 0x23, 0x3a,
  0x2c, 0xf8, 0xda, 0x00, 0xdd, 0x2c, 0x2b, 0x43, 0xaa, 0x32, 0x21, 0xf3,
  0x19, 0xed, 0xe3, 0x1d, 0x2f, 0xf6, 0xd2, 0x0a, 0xe6, 0xf0, 0x05, 0xe1,
  0xc3, 0x37, 0x18, 0x08, 0x2c, 0xd8, 0x18, 0x13, 0xfb, 0x29, 0x0e, 0xd7,
  0x10, 0x0d, 0x3a, 0xf5, 0xd9, 0x11, 0x2e, 0x37, 0x17, 0xf4, 0x08, 0xf0,
  0x1d, 0x12, 0xe9, 0xde, 0xe5, 0x17, 0x06, 0x42, 0x1e, 0x34, 0x1e, 0xd8,
  0x0f, 0x05, 0xf9, 0xd1, 0xe1, 0x1b, 0x0b, 0xfa, 0x0a, 0x2f, 0x17, 0x2a,
  0xf1, 0x3b, 0x2c, 0x4f, 0x2c, 0x1e, 0x2b, 0xf1, 0xf8, 0x2a, 0xf2, 0xe9,
  0xdd, 0x11, 0xc8, 0x41, 0x23, 0x23, 0x0c, 0xff, 0xe4, 0x19, 0xfb, 0x02,
  0x29, 0x06, 0x69, 0xf2, 0x04, 0xea, 0x0f, 0xd6, 0x13, 0x36, 0x25, 0x35,
  0xd0, 0x59, 0x15, 0xe8, 0x21, 0xda, 0x01, 0x1f, 0xcd, 0x14, 0x09, 0xe1,
  0xe8, 0x16, 0xb6, 0x00, 0x56, 0x40, 0x1a, 0x0b, 0x1e, 0x27, 0xea, 0xea,
  0x12, 0x4c, 0x24, 0x5a, 0xf9, 0xf7, 0xf1, 0x23, 0xfe, 0xd9, 0x10, 0xf3,
  0x08, 0xf4, 0xe1, 0x38, 0xf4, 0x24, 0x11, 0x24, 0xf1, 0x32, 0xf8, 0x11,
  0x23, 0xea, 0x2e, 0xe8, 0x29, 0x18, 0x04, 0x00, 0x0a, 0xeb, 0x0a, 0xe5,
  0xeb, 0xff, 0x1c, 0x3f, 0xd5, 0xd4, 0xe2, 0xc4, 0xfa, 0xd9, 0x06, 0xd8,
  0xe5, 0x0e, 0xf8, 0x03, 0x32, 0x24, 0xec, 0x15, 0xf2, 0xe9, 0x03, 0x04,
  0xe2, 0x25, 0xfd, 0xd1, 0x0d, 0x3d, 0x09, 0x23, 0x20, 0xed, 0x13, 0xf8,
  0xf2, 0x31, 0x15, 0x1c, 0xd3, 0x10, 0x01, 0x13, 0xe8, 0xf2, 0xf9, 0xe8,
  0xe4, 0xd4, 0x28, 0xf0, 0x15, 0xea, 0xda, 0x00, 0xf4, 0xf9, 0x16, 0xdd,
  0xdd, 0xdd, 0xf2, 0xd4, 0x11, 0x0b, 0x06, 0x1b, 0x25, 0xe9, 0x0e, 0xec,
  0x08, 0xd9, 0x0f, 0xf8, 0x03, 0xd7, 0xe5, 0xda, 0xe6, 0x1b, 0xfc, 0xdf,
  0x0f, 0x19, 0xee, 0x07, 0xe4, 0xe1, 0x1b, 0xed, 0xeb, 0x04, 0xf5, 0x0b,
  0xd8, 0x10, 0xe5, 0x04, 0x01, 0xf5, 0x27, 0xe1, 0xd5, 0xfb, 0x0a, 0xdf,
  0x1d, 0x35, 0xea, 0x2b, 0xed, 0x12, 0x2b, 0xf8, 0x01, 0x45, 0x03, 0x20,
  0x15, 0x13, 0x7f, 0xf9, 0xfb, 0xfa, 0x14, 0x0a, 0x31, 0x0d, 0xc9, 0x3e,
  0xf6, 0x5b, 0x0f, 0xf0, 0x06, 0x2c, 0xe3, 0xf7, 0x2f, 0x1d, 0x2d, 0xbd,
  0x0d, 0x16, 0xc6, 0xfd, 0x56, 0x17, 0x35, 0x1c, 0x27, 0x26, 0xdc, 0xeb,
  0xfc, 0x52, 0x1e, 0x5a, 0xf3, 0xd4, 0xfe, 0xfd, 0xd3, 0xfe, 0xf7, 0x32,
  0xf7, 0xf7, 0xe9, 0x2a, 0x16, 0x06, 0xfe, 0x4a, 0x1d, 0x19, 0x12, 0xd9,
  0x0e, 0x25, 0xe7, 0xfd, 0xd3, 0xe9, 0x16, 0x2c, 0xde, 0xe0, 0x33, 0xff,
  0xe4, 0x1f, 0xdd, 0x15, 0xd7, 0x22, 0xf8, 0x2f, 0x2d, 0x37, 0xfe, 0xf6,
  0x19, 0xe9, 0xee, 0x00, 0x09, 0x11, 0xb5, 0x1c, 0x04, 0x0d, 0x21, 0x58,
  0x2e, 0x12, 0xda, 0x00, 0xf2, 0x23, 0xf5, 0x39, 0xfe, 0xe2, 0x28, 0x00,
  0x0d, 0xf6, 0x06, 0x2c, 0x26, 0x05, 0xe6, 0x11, 0x24, 0x0e, 0x25, 0xe8,
  0xfd, 0x18, 0x18, 0xf1, 0xeb, 0xf7, 0x01, 0xc1, 0x16, 0xeb, 0xd0, 0x12,
  0x31, 0xfb, 0x0e, 0xed, 0xdc, 0x0b, 0x0a, 0x33, 0x27, 0xe8, 0xfc, 0xdd,
  0x2a, 0xd3, 0x11, 0xfa, 0xed, 0x0c, 0xe4, 0x06, 0x03, 0x3e, 0x4f, 0xfa,
  0xd4, 0xd5, 0x14, 0xfa, 0xed, 0xfb, 0x41, 0x16, 0x04, 0x22, 0x21, 0x11,
  0x1e, 0x16, 0x14, 0x2f, 0x02, 0x14, 0x3b, 0xea, 0x2d, 0x18, 0x20, 0x1d,
  0x1f, 0xd5, 0x13, 0xe0, 0x11, 0xf2, 0x29, 0x19, 0xf4, 0x1a, 0x07, 0xfd,
  0x07, 0x28, 0xf4, 0x10, 0x11, 0x09, 0x03, 0x33, 0xe8, 0x07, 0x06, 0xf1,
  0xe3, 0xfb, 0x07, 0x1d, 0x1f, 0xf2, 0xe7, 0xf2, 0x21, 0x1e, 0xee, 0x41,
  0xe9, 0x01, 0x14, 0xd7, 0x26, 0xd0, 0xe1, 0xf8, 0x18, 0xfa, 0x37, 0xd4,
  0x2a, 0x2e, 0xf0, 0x27, 0x1c, 0xff, 0xc4, 0xf1, 0xea, 0x1e, 0x33, 0x1f,
  0xe0, 0xfd, 0x07, 0xce, 0xfb, 0xde, 0xdd, 0xdb, 0xca, 0xce, 0x1d, 0x10,
  0x0b, 0x01, 0xfa, 0x1d, 0x32, 0xda, 0x34, 0xb3, 0x12, 0x2d, 0x06, 0x26,
  0xd4, 0x01, 0xda, 0x05, 0xd5, 0xe9, 0x19, 0x06, 0xe1, 0x21, 0xfb, 0xe4,
  0xf6, 0x0b, 0x29, 0x2c, 0x05, 0x0f, 0xf6, 0x01, 0x0f, 0x10, 0x09, 0xde,
  0x0e, 0x0d, 0xfe, 0xce, 0x0d, 0x01, 0xe3, 0x38, 0x10, 0x1c, 0x1a, 0x12,
  0x17, 0x26, 0xe7, 0x27, 0xde, 0xff, 0x1d, 0xd4, 0xf4, 0x19, 0xea, 0x24,
  0xf2, 0xf8, 0x11, 0x02, 0xef, 0x08, 0xda, 0x11, 0xed, 0xf3, 0x00, 0xd5,
  0xda, 0xe4, 0x0d, 0x26, 0xe5, 0x1e, 0x02, 0xd7, 0xdf, 0xdb, 0x0e, 0x0f,
  0x21, 0x07, 0xef, 0x0d, 0xde, 0x2a, 0xfe, 0xdf, 0x18, 0x0b, 0xec, 0xea,
  0xf9, 0xd7, 0xda, 0xee, 0xe2, 0xdf, 0xef, 0x14, 0xe5, 0xe8, 0x29, 0x04,
  0xdc, 0xf0, 0x16, 0x1a, 0xe4, 0x0c, 0x06, 0xe2, 0x0f, 0x1c, 0xe6, 0xf7,
  0x22, 0xed, 0xe0, 0x06, 0xa4, 0x1e, 0x2b, 0x24, 0x20, 0x01, 0x11, 0xf1,
  0x27, 0xf1, 0x05, 0x02, 0xed, 0x11, 0xdf, 0x2d, 0xe6, 0x28, 0x15, 0x03,
  0xe5, 0xf6, 0xde, 0xb3, 0xf6, 0x06, 0x07, 0x06, 0xc7, 0x02, 0xfd, 0x23,
  0xec, 0x31, 0x27, 0x30, 0x40, 0xcd, 0x1a, 0x08, 0xbc, 0x20, 0xe9, 0xb0,
  0xe0, 0x22, 0xdc, 0x15, 0xf6, 0x2d, 0x32, 0xe4, 0xef, 0xe2, 0x34, 0x18,
  0xd0, 0x12, 0xe3, 0x26, 0x5a, 0xfe, 0xff, 0xff, 0x04, 0x00, 0x00, 0x00,
  0x80, 0x00, 0x00, 0x00, 0xa1, 0x01, 0x00, 0x00, 0xe2, 0x00, 0x00, 0x00,
  0xda, 0x0a, 0x00, 0x00, 0x66, 0x0f, 0x00, 0x00, 0x9c, 0x04, 0x00, 0x00,
  0x71, 0x07, 0x00, 0x00, 0xad, 0x12, 0x00, 0x00, 0x9f, 0x01, 0x00, 0x00,
  0x62, 0xfb, 0xff, 0xff, 0x13, 0x02, 0x00, 0x00, 0xcf, 0x06, 0x00, 0x00,
  0x12, 0xf6, 0xff, 0xff, 0xa5, 0x11, 0x00, 0x00, 0xc1, 0x0c, 0x00, 0x00,
  0xc5, 0x0c, 0x00, 0x00, 0xfa, 0xfd, 0xff, 0xff, 0xd8, 0x04, 0x00, 0x00,
  0x4f, 0x03, 0x00, 0x00, 0x8c, 0x0e, 0x00, 0x00, 0x53, 0xfe, 0xff, 0xff,
  0xcf, 0x13, 0x00, 0x00, 0x69, 0x02, 0x00, 0x00, 0xc4, 0x08, 0x00, 0x00,
  0x5d, 0xf9, 0xff, 0xff, 0x11, 0xfe, 0xff, 0xff, 0xd3, 0x0d, 0x00, 0x00,
  0x9e, 0x07, 0x00, 0x00, 0xcd, 0xfb, 0xff, 0xff, 0x95, 0x01, 0x00, 0x00,
  0x43, 0x06, 0x00, 0x00, 0x00, 0x00, 0x00, 0x00, 0x5d, 0xfe, 0xff, 0xff,
  0xe6, 0xfe, 0xff, 0xff, 0x04, 0x00, 0x00, 0x00, 0x60, 0x00, 0x00, 0x00,
  0xba, 0xff, 0x56, 0xd7, 0x8c, 0x88, 0x0a, 0x4d, 0x13, 0xab, 0xbc, 0xdf,
  0x48, 0xec, 0x36, 0xf9, 0x9b, 0xb6, 0x38, 0xe9, 0x17, 0xa5, 0x25, 0xd9,
  0x3b, 0xfe, 0x75, 0xba, 0xa0, 0xa0, 0xf9, 0xd3, 0x00, 0xf7, 0x06, 0x4a,
  0x26, 0x55, 0x4f, 0xe5, 0xec, 0xa3, 0x54, 0x1f, 0x92, 0x04, 0x9e, 0x3a,
  0x37, 0x7f, 0x38, 0xdb, 0xb4, 0x31, 0x93, 0xf4, 0xeb, 0x92, 0xaf, 0x46,
  0x1c, 0xe8, 0x32, 0xbd, 0x67, 0x57, 0xe7, 0x82, 0x55, 0x8d, 0x83, 0x5b,
  0x58, 0x6e, 0xad, 0x5c, 0x96, 0xa0, 0x19, 0x1a, 0x51, 0x24, 0xaa, 0xfc,
  0xcf, 0x5b, 0x3b, 0x5e, 0xe4, 0xca, 0xe0, 0x33, 0x49, 0x37, 0xe8, 0x5a,
  0x52, 0xff, 0xff, 0xff, 0x04, 0x00, 0x00, 0x00, 0x0c, 0x00, 0x00, 0x00,
  0x5f, 0x04, 0x00, 0x00, 0x96, 0x00, 0x00, 0x00, 0x80, 0xfb, 0xff, 0xff,
  0x38, 0xff, 0xff, 0xff, 0x3c, 0xff, 0xff, 0xff, 0x0f, 0x00, 0x00, 0x00,
  0x54, 0x4f, 0x43, 0x4f, 0x20, 0x43, 0x6f, 0x6e, 0x76, 0x65, 0x72, 0x74,
  0x65, 0x64, 0x2e, 0x00, 0x01, 0x00, 0x00, 0x00, 0x14, 0x00, 0x00, 0x00,
  0x00, 0x00, 0x0e, 0x00, 0x18, 0x00, 0x14, 0x00, 0x10, 0x00, 0x0c, 0x00,
  0x08, 0x00, 0x04, 0x00, 0x0e, 0x00, 0x00, 0x00, 0x14, 0x00, 0x00, 0x00,
  0x1c, 0x00, 0x00, 0x00, 0x38, 0x01, 0x00, 0x00, 0x3c, 0x01, 0x00, 0x00,
  0x40, 0x01, 0x00, 0x00, 0x04, 0x00, 0x00, 0x00, 0x6d, 0x61, 0x69, 0x6e,
  0x00, 0x00, 0x00, 0x00, 0x04, 0x00, 0x00, 0x00, 0xe0, 0x00, 0x00, 0x00,
  0x98, 0x00, 0x00, 0x00, 0x50, 0x00, 0x00, 0x00, 0x14, 0x00, 0x00, 0x00,
  0x00, 0x00, 0x0e, 0x00, 0x1a, 0x00, 0x14, 0x00, 0x10, 0x00, 0x0c, 0x00,
  0x0b, 0x00, 0x04, 0x00, 0x0e, 0x00, 0x00, 0x00, 0x1c, 0x00, 0x00, 0x00,
  0x00, 0x00, 0x00, 0x09, 0x1c, 0x00, 0x00, 0x00, 0x20, 0x00, 0x00, 0x00,
  0x01, 0x00, 0x00, 0x00, 0x00, 0x00, 0x06, 0x00, 0x08, 0x00, 0x04, 0x00,
  0x06, 0x00, 0x00, 0x00, 0x00, 0x00, 0x80, 0x3f, 0x01, 0x00, 0x00, 0x00,
  0x0a, 0x00, 0x00, 0x00, 0x01, 0x00, 0x00, 0x00, 0x09, 0x00, 0x00, 0x00,
  0xca, 0xff, 0xff, 0xff, 0x14, 0x00, 0x00, 0x00, 0x00, 0x00, 0x00, 0x08,
  0x10, 0x00, 0x00, 0x00, 0x14, 0x00, 0x00, 0x00, 0x04, 0x00, 0x04, 0x00,
  0x04, 0x00, 0x00, 0x00, 0x01, 0x00, 0x00, 0x00, 0x09, 0x00, 0x00, 0x00,
  0x03, 0x00, 0x00, 0x00, 0x08, 0x00, 0x00, 0x00, 0x02, 0x00, 0x00, 0x00,
  0x01, 0x00, 0x00, 0x00, 0x00, 0x00, 0x0e, 0x00, 0x14, 0x00, 0x00, 0x00,
  0x10, 0x00, 0x0c, 0x00, 0x0b, 0x00, 0x04, 0x00, 0x0e, 0x00, 0x00, 0x00,
  0x10, 0x00, 0x00, 0x00, 0x00, 0x00, 0x00, 0x08, 0x10, 0x00, 0x00, 0x00,
  0x14, 0x00, 0x00, 0x00, 0xba, 0xff, 0xff, 0xff, 0x00, 0x00, 0x00, 0x01,
  0x01, 0x00, 0x00, 0x00, 0x08, 0x00, 0x00, 0x00, 0x03, 0x00, 0x00, 0x00,
  0x07, 0x00, 0x00, 0x00, 0x04, 0x00, 0x00, 0x00, 0x03, 0x00, 0x00, 0x00,
  0x00, 0x00, 0x0e, 0x00, 0x16, 0x00, 0x00, 0x00, 0x10, 0x00, 0x0c, 0x00,
  0x0b, 0x00, 0x04, 0x00, 0x0e, 0x00, 0x00, 0x00, 0x18, 0x00, 0x00, 0x00,
  0x00, 0x00, 0x00, 0x08, 0x18, 0x00, 0x00, 0x00, 0x1c, 0x00, 0x00, 0x00,
  0x00, 0x00, 0x06, 0x00, 0x08, 0x00, 0x07, 0x00, 0x06, 0x00, 0x00, 0x00,
  0x00, 0x00, 0x00, 0x01, 0x01, 0x00, 0x00, 0x00, 0x07, 0x00, 0x00, 0x00,
  0x03, 0x00, 0x00, 0x00, 0x00, 0x00, 0x00, 0x00, 0x06, 0x00, 0x00, 0x00,
  0x05, 0x00, 0x00, 0x00, 0x01, 0x00, 0x00, 0x00, 0x0a, 0x00, 0x00, 0x00,
  0x01, 0x00, 0x00, 0x00, 0x00, 0x00, 0x00, 0x00, 0x0b, 0x00, 0x00, 0x00,
  0x78, 0x05, 0x00, 0x00, 0xc0, 0x04, 0x00, 0x00, 0x54, 0x04, 0x00, 0x00,
  0xb8, 0x03, 0x00, 0x00, 0x4c, 0x03, 0x00, 0x00, 0xb0, 0x02, 0x00, 0x00,
  0x44, 0x02, 0x00, 0x00, 0xa8, 0x01, 0x00, 0x00, 0x0c, 0x01, 0x00, 0x00,
  0x70, 0x00, 0x00, 0x00, 0x04, 0x00, 0x00, 0x00, 0xca, 0xfa, 0xff, 0xff,
  0x00, 0x00, 0x00, 0x01, 0x14, 0x00, 0x00, 0x00, 0x34, 0x00, 0x00, 0x00,
  0x0b, 0x00, 0x00, 0x00, 0x00, 0x00, 0x00, 0x09, 0x44, 0x00, 0x00, 0x00,
  0xb4, 0xfa, 0xff, 0xff, 0x08, 0x00, 0x00, 0x00, 0x14, 0x00, 0x00, 0x00,
  0x01, 0x00, 0x00, 0x00, 0x80, 0xff, 0xff, 0xff, 0xff, 0xff, 0xff, 0xff,
  0x00, 0x00, 0x00, 0x00, 0x01, 0x00, 0x00, 0x00, 0x00, 0x00, 0x80, 0x3b,
  0x17, 0x00, 0x00, 0x00, 0x53, 0x74, 0x61, 0x74, 0x65, 0x66, 0x75, 0x6c,
  0x50, 0x61, 0x72, 0x74, 0x69, 0x74, 0x69, 0x6f, 0x6e, 0x65, 0x64, 0x43,
  0x61, 0x6c, 0x6c, 0x00, 0x02, 0x00, 0x00, 0x00, 0x01, 0x00, 0x00, 0x00,
  0x03, 0x00, 0x00, 0x00, 0x32, 0xfb, 0xff, 0xff, 0x00, 0x00, 0x00, 0x01,
  0x14, 0x00, 0x00, 0x00, 0x30, 0x00, 0x00, 0x00, 0x0a, 0x00, 0x00, 0x00,
  0x00, 0x00, 0x00, 0x09, 0x74, 0x00, 0x00, 0x00, 0x1c, 0xfb, 0xff, 0xff,
  0x08, 0x00, 0x00, 0x00, 0x10, 0x00, 0x00, 0x00, 0x01, 0x00, 0x00, 0x00,
  0xf3, 0xff, 0xff, 0xff, 0xff, 0xff, 0xff, 0xff, 0x01, 0x00, 0x00, 0x00,
  0xd6, 0xcd, 0xc8, 0x3d, 0x49, 0x00, 0x00, 0x00, 0x53, 0x74, 0x61, 0x74,
  0x65, 0x66, 0x75, 0x6c, 0x50, 0x61, 0x72, 0x74, 0x69, 0x74, 0x69, 0x6f,
  0x6e, 0x65, 0x64, 0x43, 0x61, 0x6c, 0x6c, 0x2f, 0x53, 0x74, 0x61, 0x74,
  0x65, 0x66, 0x75, 0x6c, 0x50, 0x61, 0x72, 0x74, 0x69, 0x74, 0x69, 0x6f,
  0x6e, 0x65, 0x64, 0x43, 0x61, 0x6c, 0x6c, 0x2f, 0x73, 0x65, 0x71, 0x75,
  0x65, 0x6e, 0x74, 0x69, 0x61, 0x6c, 0x2f, 0x6f, 0x75, 0x74, 0x70, 0x75,
  0x74, 0x2f, 0x42, 0x69, 0x61, 0x73, 0x41, 0x64, 0x64, 0x00, 0x00, 0x00,
  0x02, 0x00, 0x00, 0x00, 0x01, 0x00, 0x00, 0x00, 0x03, 0x00, 0x00, 0x00,
  0xca, 0xfb, 0xff, 0xff, 0x00, 0x00, 0x00, 0x01, 0x14, 0x00, 0x00, 0x00,
  0x30, 0x00, 0x00, 0x00, 0x09, 0x00, 0x00, 0x00, 0x00, 0x00, 0x00, 0x09,
  0x74, 0x00, 0x00, 0x00, 0xb4, 0xfb, 0xff, 0xff, 0x08, 0x00, 0x00, 0x00,
  0x10, 0x00, 0x00, 0x00, 0x01, 0x00, 0x00, 0x00, 0x80, 0xff, 0xff, 0xff,
  0xff, 0xff, 0xff, 0xff, 0x01, 0x00, 0x00, 0x00, 0xe3, 0xec, 0xb5, 0x3c,
  0x48, 0x00, 0x00, 0x00, 0x53, 0x74, 0x61, 0x74, 0x65, 0x66, 0x75, 0x6c,
  0x50, 0x61, 0x72, 0x74, 0x69, 0x74, 0x69, 0x6f, 0x6e, 0x65, 0x64, 0x43,
  0x61, 0x6c, 0x6c, 0x2f, 0x53, 0x74, 0x61, 0x74, 0x65, 0x66, 0x75, 0x6c,
  0x50, 0x61, 0x72, 0x74, 0x69, 0x74, 0x69, 0x6f, 0x6e, 0x65, 0x64, 0x43,
  0x61, 0x6c, 0x6c, 0x2f, 0x73, 0x65, 0x71, 0x75, 0x65, 0x6e, 0x74, 0x69,
  0x61, 0x6c, 0x2f, 0x68, 0x69, 0x64, 0x64, 0x65, 0x6e, 0x5f, 0x32, 0x2f,
  0x52, 0x65, 0x6c, 0x75, 0x00, 0x00, 0x00, 0x00, 0x02, 0x00, 0x00, 0x00,
  0x01, 0x00, 0x00, 0x00, 0x20, 0x00, 0x00, 0x00, 0x62, 0xfc, 0xff, 0xff,
  0x00, 0x00, 0x00, 0x01, 0x14, 0x00, 0x00, 0x00, 0x30, 0x00, 0x00, 0x00,
  0x08, 0x00, 0x00, 0x00, 0x00, 0x00, 0x00, 0x09, 0x74, 0x00, 0x00, 0x00,
  0x4c, 0xfc, 0xff, 0xff, 0x08, 0x00, 0x00, 0x00, 0x10, 0x00, 0x00, 0x00,
  0x01, 0x00, 0x00, 0x00, 0x80, 0xff, 0xff, 0xff, 0xff, 0xff, 0xff, 0xff,
  0x01, 0x00, 0x00, 0x00, 0xa3, 0x32, 0xd4, 0x3b, 0x48, 0x00, 0x00, 0x00,
  0x53, 0x74, 0x61, 0x74, 0x65, 0x66, 0x75, 0x6c, 0x50, 0x61, 0x72, 0x74,
  0x69, 0x74, 0x69, 0x6f, 0x6e, 0x65, 0x64, 0x43, 0x61, 0x6c, 0x6c, 0x2f,
  0x53, 0x74, 0x61, 0x74, 0x65, 0x66, 0x75, 0x6c, 0x50, 0x61, 0x72, 0x74,
  0x69, 0x74, 0x69, 0x6f, 0x6e, 0x65, 0x64, 0x43, 0x61, 0x6c, 0x6c, 0x2f,
  0x73, 0x65, 0x71, 0x75, 0x65, 0x6e, 0x74, 0x69, 0x61, 0x6c, 0x2f, 0x68,
  0x69, 0x64, 0x64, 0x65, 0x6e, 0x5f, 0x31, 0x2f, 0x52, 0x65, 0x6c, 0x75,
  0x00, 0x00, 0x00, 0x00, 0x02, 0x00, 0x00, 0x00, 0x01, 0x00, 0x00, 0x00,
  0x40, 0x00, 0x00, 0x00, 0xfa, 0xfc, 0xff, 0xff, 0x00, 0x00, 0x00, 0x01,
  0x14, 0x00, 0x00, 0x00, 0x30, 0x00, 0x00, 0x00, 0x07, 0x00, 0x00, 0x00,
  0x00, 0x00, 0x00, 0x09, 0x44, 0x00, 0x00, 0x00, 0xe4, 0xfc, 0xff, 0xff,
  0x08, 0x00, 0x00, 0x00, 0x10, 0x00, 0x00, 0x00, 0x01, 0x00, 0x00, 0x00,
  0x00, 0x00, 0x00, 0x00, 0x00, 0x00, 0x00, 0x00, 0x01, 0x00, 0x00, 0x00,
  0x35, 0xca, 0x8c, 0x3b, 0x19, 0x00, 0x00, 0x00, 0x68, 0x69, 0x64, 0x64,
  0x65, 0x6e, 0x5f, 0x31, 0x2f, 0x6b, 0x65, 0x72, 0x6e, 0x65, 0x6c, 0x2f,
  0x74, 0x72, 0x61, 0x6e, 0x73, 0x70, 0x6f, 0x73, 0x65, 0x00, 0x00, 0x00,
  0x02, 0x00, 0x00, 0x00, 0x40, 0x00, 0x00, 0x00, 0x04, 0x00, 0x00, 0x00,
  0x62, 0xfd, 0xff, 0xff, 0x00, 0x00, 0x00, 0x01, 0x14, 0x00, 0x00, 0x00,
  0x30, 0x00, 0x00, 0x00, 0x06, 0x00, 0x00, 0x00, 0x00, 0x00, 0x00, 0x02,
  0x78, 0x00, 0x00, 0x00, 0x4c, 0xfd, 0xff, 0xff, 0x08, 0x00, 0x00, 0x00,
  0x10, 0x00, 0x00, 0x00, 0x01, 0x00, 0x00, 0x00, 0x00, 0x00, 0x00, 0x00,
  0x00, 0x00, 0x00, 0x00, 0x01, 0x00, 0x00, 0x00, 0x56, 0x85, 0xcb, 0x38,
  0x4f, 0x00, 0x00, 0x00, 0x53, 0x74, 0x61, 0x74, 0x65, 0x66, 0x75, 0x6c,
  0x50, 0x61, 0x72, 0x74, 0x69, 0x74, 0x69, 0x6f, 0x6e, 0x65, 0x64, 0x43,
  0x61, 0x6c, 0x6c, 0x2f, 0x53, 0x74, 0x61, 0x74, 0x65, 0x66, 0x75, 0x6c,
  0x50, 0x61, 0x72, 0x74, 0x69, 0x74, 0x69, 0x6f, 0x6e, 0x65, 0x64, 0x43,
  0x61, 0x6c, 0x6c, 0x2f, 0x73, 0x65, 0x71, 0x75, 0x65, 0x6e, 0x74, 0x69,
  0x61, 0x6c, 0x2f, 0x68, 0x69, 0x64, 0x64, 0x65, 0x6e, 0x5f, 0x31, 0x2f,
  0x4d, 0x61, 0x74, 0x4d, 0x75, 0x6c, 0x5f, 0x62, 0x69, 0x61, 0x73, 0x00,
  0x01, 0x00, 0x00, 0x00, 0x40, 0x00, 0x00, 0x00, 0xfa, 0xfd, 0xff, 0xff,
  0x00, 0x00, 0x00, 0x01, 0x14, 0x00, 0x00, 0x00, 0x30, 0x00, 0x00, 0x00,
  0x05, 0x00, 0x00, 0x00, 0x00, 0x00, 0x00, 0x09, 0x44, 0x00, 0x00, 0x00,
  0xe4, 0xfd, 0xff, 0xff, 0x08, 0x00, 0x00, 0x00, 0x10, 0x00, 0x00, 0x00,
  0x01, 0x00, 0x00, 0x00, 0x00, 0x00, 0x00, 0x00, 0x00, 0x00, 0x00, 0x00,
  0x01, 0x00, 0x00, 0x00, 0x9f, 0x26, 0xbb, 0x3b, 0x19, 0x00, 0x00, 0x00,
  0x68, 0x69, 0x64, 0x64, 0x65, 0x6e, 0x5f, 0x32, 0x2f, 0x6b, 0x65, 0x72,
  0x6e, 0x65, 0x6c, 0x2f, 0x74, 0x72, 0x61, 0x6e, 0x73, 0x70, 0x6f, 0x73,
  0x65, 0x00, 0x00, 0x00, 0x02, 0x00, 0x00, 0x00, 0x20, 0x00, 0x00, 0x00,
  0x40, 0x00, 0x00, 0x00, 0x62, 0xfe, 0xff, 0xff, 0x00, 0x00, 0x00, 0x01,
  0x14, 0x00, 0x00, 0x00, 0x30, 0x00, 0x00, 0x00, 0x04, 0x00, 0x00, 0x00,
  0x00, 0x00, 0x00, 0x02, 0x78, 0x00, 0x00, 0x00, 0x4c, 0xfe, 0xff, 0xff,
  0x08, 0x00, 0x00, 0x00, 0x10, 0x00, 0x00, 0x00, 0x01, 0x00, 0x00, 0x00,
  0x00, 0x00, 0x00, 0x00, 0x00, 0x00, 0x00, 0x00, 0x01, 0x00, 0x00, 0x00,
  0x00, 0x21, 0x1b, 0x38, 0x4f, 0x00, 0x00, 0x00, 0x53, 0x74, 0x61, 0x74,
  0x65, 0x66, 0x75, 0x6c, 0x50, 0x61, 0x72, 0x74, 0x69, 0x74, 0x69, 0x6f,
  0x6e, 0x65, 0x64, 0x43, 0x61, 0x6c, 0x6c, 0x2f, 0x53, 0x74, 0x61, 0x74,
  0x65, 0x66, 0x75, 0x6c, 0x50, 0x61, 0x72, 0x74, 0x69, 0x74, 0x69, 0x6f,
  0x6e, 0x65, 0x64, 0x43, 0x61, 0x6c, 0x6c, 0x2f, 0x73, 0x65, 0x71, 0x75,
  0x65, 0x6e, 0x74, 0x69, 0x61, 0x6c, 0x2f, 0x68, 0x69, 0x64, 0x64, 0x65,
  0x6e, 0x5f, 0x32, 0x2f, 0x4d, 0x61, 0x74, 0x4d, 0x75, 0x6c, 0x5f, 0x62,
  0x69, 0x61, 0x73, 0x00, 0x01, 0x00, 0x00, 0x00, 0x20, 0x00, 0x00, 0x00,
  0xfa, 0xfe, 0xff, 0xff, 0x00, 0x00, 0x00, 0x01, 0x14, 0x00, 0x00, 0x00,
  0x34, 0x00, 0x00, 0x00, 0x03, 0x00, 0x00, 0x00, 0x00, 0x00, 0x00, 0x09,
  0x44, 0x00, 0x00, 0x00, 0xe4, 0xfe, 0xff, 0xff, 0x08, 0x00, 0x00, 0x00,
  0x14, 0x00, 0x00, 0x00, 0x01, 0x00, 0x00, 0x00, 0x00, 0x00, 0x00, 0x00,
  0x00, 0x00, 0x00, 0x00, 0x00, 0x00, 0x00, 0x00, 0x01, 0x00, 0x00, 0x00,
  0xeb, 0xe4, 0xa1, 0x3b, 0x17, 0x00, 0x00, 0x00, 0x6f, 0x75, 0x74, 0x70,
  0x75, 0x74, 0x2f, 0x6b, 0x65, 0x72, 0x6e, 0x65, 0x6c, 0x2f, 0x74, 0x72,
  0x61, 0x6e, 0x73, 0x70, 0x6f, 0x73, 0x65, 0x00, 0x02, 0x00, 0x00, 0x00,
  0x03, 0x00, 0x00, 0x00, 0x20, 0x00, 0x00, 0x00, 0x62, 0xff, 0xff, 0xff,
  0x00, 0x00, 0x00, 0x01, 0x14, 0x00, 0x00, 0x00, 0x34, 0x00, 0x00, 0x00,
  0x02, 0x00, 0x00, 0x00, 0x00, 0x00, 0x00, 0x02, 0x7c, 0x00, 0x00, 0x00,
  0x4c, 0xff, 0xff, 0xff, 0x08, 0x00, 0x00, 0x00, 0x14, 0x00, 0x00, 0x00,
  0x01, 0x00, 0x00, 0x00, 0x00, 0x00, 0x00, 0x00, 0x00, 0x00, 0x00, 0x00,
  0x00, 0x00, 0x00, 0x00, 0x01, 0x00, 0x00, 0x00, 0x51, 0x19, 0xe6, 0x38,
  0x4d, 0x00, 0x00, 0x00, 0x53, 0x74, 0x61, 0x74, 0x65, 0x66, 0x75, 0x6c,
  0x50, 0x61, 0x72, 0x74, 0x69, 0x74, 0x69, 0x6f, 0x6e, 0x65, 0x64, 0x43,
  0x61, 0x6c, 0x6c, 0x2f, 0x53, 0x74, 0x61, 0x74, 0x65, 0x66, 0x75, 0x6c,
  0x50, 0x61, 0x72, 0x74, 0x69, 0x74, 0x69, 0x6f, 0x6e, 0x65, 0x64, 0x43,
  0x61, 0x6c, 0x6c, 0x2f, 0x73, 0x65, 0x71, 0x75, 0x65, 0x6e, 0x74, 0x69,
  0x61, 0x6c, 0x2f, 0x6f, 0x75, 0x74, 0x70, 0x75, 0x74, 0x2f, 0x4d, 0x61,
  0x74, 0x4d, 0x75, 0x6c, 0x5f, 0x62, 0x69, 0x61, 0x73, 0x00, 0x00, 0x00,
  0x01, 0x00, 0x00, 0x00, 0x03, 0x00, 0x00, 0x00, 0x00, 0x00, 0x16, 0x00,
  0x1c, 0x00, 0x18, 0x00, 0x17, 0x00, 0x10, 0x00, 0x0c, 0x00, 0x08, 0x00,
  0x00, 0x00, 0x00, 0x00, 0x00, 0x00, 0x07, 0x00, 0x16, 0x00, 0x00, 0x00,
  0x00, 0x00, 0x00, 0x01, 0x20, 0x00, 0x00, 0x00, 0x3c, 0x00, 0x00, 0x00,
  0x01, 0x00, 0x00, 0x00, 0x00, 0x00, 0x00, 0x09, 0x4c, 0x00, 0x00, 0x00,
  0x0c, 0x00, 0x0c, 0x00, 0x00, 0x00, 0x00, 0x00, 0x08, 0x00, 0x04, 0x00,
  0x0c, 0x00, 0x00, 0x00, 0x08, 0x00, 0x00, 0x00, 0x10, 0x00, 0x00, 0x00,
  0x01, 0x00, 0x00, 0x00, 0x14, 0x00, 0x00, 0x00, 0x00, 0x00, 0x00, 0x00,
  0x01, 0x00, 0x00, 0x00, 0x42, 0x08, 0xb9, 0x3c, 0x17, 0x00, 0x00, 0x00,
  0x73, 0x65, 0x72, 0x76, 0x69, 0x6e, 0x67, 0x5f, 0x64, 0x65, 0x66, 0x61,
  0x75, 0x6c, 0x74, 0x5f, 0x69, 0x6e, 0x70, 0x75, 0x74, 0x5f, 0x31, 0x00,
  0x02, 0x00, 0x00, 0x00, 0x01, 0x00, 0x00, 0x00, 0x04, 0x00, 0x00, 0x00,
  0x02, 0x00, 0x00, 0x00, 0x24, 0x00, 0x00, 0x00, 0x04, 0x00, 0x00, 0x00,
  0xf0, 0xff, 0xff, 0xff, 0x19, 0x00, 0x00, 0x00, 0x02, 0x00, 0x00, 0x00,
  0x00, 0x00, 0x00, 0x19, 0x0c, 0x00, 0x10, 0x00, 0x0f, 0x00, 0x00, 0x00,
  0x08, 0x00, 0x04, 0x00, 0x0c, 0x00, 0x00, 0x00, 0x09, 0x00, 0x00, 0x00,
  0x04, 0x00, 0x00, 0x00, 0x00, 0x00, 0x00, 0x09
};
unsigned int fruiot_model_quantized_tflite_len = 5192;
